-0.036457
-0.036753
-0.062027
0.128187
0.019210
0.115917
0.022858
0.035406
-0.002057
0.152110
0.076212
-0.174371
0.019143
-0.154989
-0.022949
0.145888
0.171537
-0.052056
0.152108
-0.028063
-0.144484
-0.103839
-0.071958
-0.138438
-0.115372
0.133597
0.138216
0.047440
-0.000274
-0.003351
-0.142904
0.177531
0.059930
0.070275
0.043876
0.116952
-0.124747
-0.056144
-0.134327
-0.038058
-0.149154
0.131209
-0.155068
-0.057953
0.175714
0.063619
-0.042293
0.169792
-0.175936
-0.112433
-0.078985
-0.018896
0.081461
-0.147213
-0.122323
-0.131850
0.135520
0.005248
0.183753
0.107024
0.112692
0.056840
-0.178307
0.125407
0.146968
-0.092371
-0.000264
-0.155301
0.065915
0.021644
0.003581
-0.115486
0.132305
0.104509
-0.086079
-0.167658
0.111713
0.102231
0.160013
0.069073
0.005980
0.110867
0.066024
0.048699
-0.123482
0.135536
-0.006930
0.181057
-0.015374
-0.073623
0.000968
0.047248
-0.138543
0.020478
-0.106127
-0.139509
-0.094334
-0.010496
-0.003483
-0.066696
0.014319
0.111169
0.052189
0.066090
0.046975
-0.078597
0.161640
-0.102762
-0.027715
-0.073508
0.151764
-0.074336
0.049264
0.020144
-0.044784
0.048282
0.087794
-0.159082
-0.033012
0.069541
-0.176014
0.065937
0.064175
-0.037186
-0.016064
0.171010
0.090394
-0.183820
-0.151291
0.133210
0.124836
-0.091401
0.072517
0.014937
0.044200
0.192052
0.060824
-0.024960
0.103990
0.153824
0.055979
0.064943
0.137290
0.060032
-0.093714
0.039735
-0.055111
0.044654
0.043226
-0.072032
-0.048658
0.005388
-0.161248
-0.122165
-0.076158
-0.118914
-0.143176
-0.117564
0.165660
-0.026466
-0.140117
0.149038
-0.164540
0.033682
-0.191635
-0.147605
0.028467
-0.124217
-0.147976
-0.131550
0.144511
-0.148059
0.159849
0.060084
0.078555
-0.141190
0.067615
-0.038521
0.159844
0.179560
-0.187036
0.079947
-0.049397
0.152895
0.010252
-0.136071
-0.141489
-0.039610
-0.127559
-0.104806
-0.131420
0.192152
-0.044241
0.143528
-0.006821
0.078163
0.033447
-0.056609
0.093135
0.108678
-0.117041
0.056003
-0.066317
0.185549
0.126060
-0.119461
0.171625
-0.182842
-0.011402
0.105277
-0.118181
-0.147165
-0.005573
0.090952
0.002058
0.061426
0.087665
-0.116171
-0.046131
0.053338
0.006049
-0.015089
-0.098808
0.178881
0.137242
0.018908
-0.110534
-0.049192
0.066640
-0.191300
-0.021050
0.172967
0.018122
-0.081874
0.009226
-0.033364
-0.004988
-0.158946
-0.113840
-0.176019
0.082879
0.026821
0.184026
-0.080347
0.068231
0.049560
0.049058
0.049667
0.074264
-0.181880
-0.132162
0.151952
-0.177360
-0.157204
-0.191015
-0.097466
-0.086134
0.181312
0.028160
-0.006329
-0.082770
0.085560
0.077146
0.041121
0.123316
0.101653
0.050306
-0.082638
0.096835
-0.085080
-0.094269
-0.146744
0.107356
0.034541
0.180641
-0.187738
-0.070039
0.168557
-0.002654
-0.174400
-0.081215
0.046177
-0.142335
0.082817
-0.019466
-0.134720
0.135115
-0.000458
-0.050154
-0.018468
0.146104
-0.133026
-0.054194
-0.079399
-0.171771
-0.052078
-0.108493
-0.087976
0.183373
0.045115
0.034147
0.176708
0.066103
0.141035
-0.174646
0.093579
0.118260
0.052772
0.037683
-0.057576
0.150859
-0.179529
0.078528
-0.108521
0.157224
-0.105546
0.095271
0.122741
0.169960
-0.050834
0.191348
-0.116522
-0.128189
-0.048776
-0.076445
0.184622
0.142662
0.129144
-0.151995
-0.104619
0.061501
0.091786
-0.091168
-0.158130
0.034758
-0.063246
-0.028114
0.046827
0.049468
-0.046792
0.191118
0.047601
0.168419
-0.079166
0.190477
0.088222
-0.061087
0.156269
-0.018847
-0.074369
0.170652
-0.154602
-0.069671
0.084610
0.018216
0.014672
0.117988
0.107564
0.172146
0.059607
-0.016284
0.068687
-0.151817
0.000929
-0.015458
-0.004806
-0.008468
0.069899
-0.141385
0.192398
0.107674
0.094916
-0.191954
0.181148
0.094383
-0.085807
0.093119
0.047415
0.089419
0.013385
0.095125
-0.154372
0.086358
-0.137940
-0.088599
0.093885
0.031303
-0.131217
0.056436
-0.143101
0.067051
0.187665
0.045144
-0.133067
0.101729
-0.167502
0.156955
0.002134
-0.139225
-0.078843
-0.160314
-0.134346
0.151355
-0.163741
0.069471
0.069545
-0.099940
-0.002202
0.088800
-0.065744
0.013741
-0.186325
-0.188294
0.040449
-0.026393
0.076849
0.168805
-0.114196
0.154063
-0.152935
-0.043372
0.073357
-0.016439
-0.111596
0.005140
-0.147791
0.147924
-0.045782
-0.118005
0.084099
0.124304
0.179078
0.122208
0.066256
0.100910
-0.112297
-0.136506
0.177617
0.121790
-0.058825
-0.097910
0.041397
0.035847
0.004274
-0.017938
-0.167389
0.159984
-0.088854
0.015091
-0.138089
-0.151359
0.164905
-0.125117
0.046121
-0.050070
0.060151
0.079553
0.077420
0.092820
0.047429
0.173719
-0.186542
0.142346
0.065801
-0.006933
0.023061
0.161743
-0.122516
0.029964
-0.116421
-0.019027
-0.117495
0.118178
-0.156683
-0.099463
0.116723
-0.050574
0.109104
0.079603
0.185278
0.023873
-0.066091
0.186854
-0.104215
-0.180521
0.079620
-0.120457
-0.103696
-0.099373
0.149040
0.163710
-0.091870
-0.157738
0.096578
0.159211
0.174893
-0.086593
0.064237
0.064568
-0.051767
0.167727
-0.135628
0.018803
-0.191263
0.147662
0.107265
0.141153
0.076788
-0.036378
-0.102581
-0.037437
-0.071605
0.004940
-0.092490
0.102877
-0.189116
0.065700
0.061836
-0.007889
0.049694
-0.169517
-0.104509
-0.137251
-0.081792
0.172666
-0.182161
-0.022077
-0.133760
0.073637
-0.139950
-0.031120
0.118639
-0.078837
-0.014417
0.162998
-0.063687
-0.128498
-0.165362
-0.093199
-0.098151
0.140112
-0.065513
0.103967
0.087032
0.027697
0.060760
-0.026350
-0.082156
-0.096166
-0.038725
0.172650
-0.189120
-0.186693
-0.026015
-0.033626
0.184859
0.003660
-0.125007
-0.071140
-0.132474
-0.040974
-0.027753
0.018959
-0.058705
-0.094660
0.052284
0.156457
0.026054
0.051737
0.102864
0.132847
0.068240
0.160770
0.036225
-0.069763
-0.128435
0.146617
-0.001198
-0.149674
-0.148727
-0.024667
0.059131
-0.026612
0.135020
0.080344
-0.007520
-0.133032
-0.129615
-0.110951
-0.056492
0.056327
-0.076150
0.040438
-0.191217
-0.162157
0.090477
0.088566
-0.191952
0.115399
0.156316
-0.190056
-0.038027
0.087827
-0.078614
0.093577
0.061899
0.111443
-0.081110
0.136378
0.029414
-0.100828
0.050831
-0.071356
0.048812
-0.014152
-0.107476
0.055098
0.066238
0.180126
-0.028672
0.101776
0.010605
0.012833
-0.179608
0.191320
-0.185010
0.164133
-0.076933
0.020792
0.009743
0.046987
-0.190577
0.126139
-0.107969
-0.094244
0.142301
0.167728
-0.088473
0.078679
0.106496
0.083825
-0.035042
0.157564
0.014151
0.043793
-0.165808
0.055055
-0.111401
0.183746
-0.101094
-0.103290
-0.153422
-0.096687
0.138808
0.000600
0.094732
0.021386
-0.157973
-0.019007
-0.170317
0.063170
-0.048649
-0.118893
0.141387
-0.090258
0.086851
0.184492
-0.017982
-0.025138
0.030563
-0.060629
0.098162
-0.171414
-0.082679
0.165689
-0.104174
-0.150657
0.005881
-0.027522
0.074473
-0.162307
-0.115789
-0.144962
-0.145723
0.083260
0.191109
-0.068556
-0.016846
-0.140701
-0.153178
-0.063841
-0.076830
-0.066349
-0.018675
-0.074308
0.147259
0.166228
0.110507
-0.097919
-0.098920
-0.062456
0.146880
0.078138
0.076858
-0.062027
-0.026868
0.013780
0.112111
-0.160023
-0.131175
-0.097394
0.020819
-0.043267
-0.140420
-0.023693
0.049179
0.002557
0.058275
0.091540
0.132127
0.138438
-0.164390
-0.129658
0.175652
-0.150735
0.188439
-0.176830
-0.049232
-0.143320
-0.088498
0.105025
0.143620
-0.163851
-0.079896
0.066259
0.115010
-0.180545
0.168419
-0.088054
-0.004411
0.108494
0.119831
-0.007463
0.145432
0.089609
-0.000910
-0.064199
0.157966
0.073834
0.097673
0.140566
-0.040747
-0.040606
0.098654
-0.124912
0.062709
-0.028355
0.146410
-0.174227
-0.179740
0.042728
0.103189
0.042887
0.155245
0.190039
0.081073
0.064842
0.002422
0.093715
0.061040
0.098282
0.033707
0.169952
-0.180943
0.036246
-0.068587
0.085782
0.127867
-0.122804
-0.127921
0.125740
0.059526
-0.067771
-0.113922
-0.139015
-0.164931
0.168186
0.050434
0.179477
0.169585
-0.041970
0.007770
0.028521
-0.067060
0.042416
-0.169007
-0.168528
-0.091634
0.036473
-0.048307
0.117230
-0.085349
-0.187822
-0.120856
0.172213
0.163068
0.120430
-0.182127
-0.010203
0.054382
0.028575
0.003610
-0.125455
0.136669
0.081021
-0.168526
0.031485
-0.019131
-0.181669
0.154553
-0.028849
0.104925
-0.016483
0.000637
0.180383
-0.056445
-0.153655
0.177459
0.172294
0.046905
0.114234
0.152870
-0.186131
-0.126311
0.167658
-0.064228
-0.037648
0.183550
0.035553
-0.097163
0.044106
0.107301
-0.156174
0.091177
-0.141751
0.101544
0.112835
0.072822
0.087379
0.031095
-0.066481
-0.144388
-0.178250
0.179436
0.127321
0.124929
0.187188
-0.093082
-0.143747
0.123107
-0.094949
-0.102933
0.109924
0.159205
0.027087
0.060816
-0.164222
0.035446
-0.032333
-0.044158
0.039810
-0.031827
-0.030342
-0.143782
-0.065089
-0.176062
-0.129920
0.192016
-0.038738
0.083761
-0.134860
-0.166968
0.144779
0.050426
0.149290
0.115647
0.074990
-0.176475
-0.166591
-0.064596
-0.064778
-0.174532
0.027671
0.025270
0.170165
0.130328
0.080068
0.033942
-0.160257
-0.143844
-0.084057
0.077382
-0.051583
-0.116661
0.014397
0.137277
0.163656
0.170998
0.183990
0.076904
-0.042027
0.127706
-0.060228
0.084403
0.126351
-0.003195
-0.159798
-0.019717
0.125751
0.024323
0.050703
0.134883
0.018483
-0.002188
0.071809
-0.069170
0.098075
0.093927
-0.043429
-0.118327
-0.061523
-0.138109
-0.014135
0.106221
-0.113492
0.042875
0.025884
0.052259
-0.115113
0.110980
0.139322
0.031219
0.148040
-0.115495
-0.000101
-0.171588
0.125034
0.013890
-0.103068
-0.097178
-0.146651
0.102327
0.132890
0.157160
0.130160
0.129949
-0.157625
-0.022146
0.159707
0.178701
-0.083952
-0.055477
-0.151902
0.137195
0.024438
0.029048
-0.147933
0.078719
0.037719
-0.160950
0.070519
0.010845
0.108821
-0.082411
-0.108783
0.134238
0.142664
0.031300
-0.017557
-0.103454
0.052009
0.188793
-0.170562
0.171164
0.034572
0.083580
-0.012942
-0.058046
0.095687
0.168854
-0.136587
0.028553
0.147949
-0.038028
-0.017250
0.010603
-0.099454
-0.005542
-0.118552
-0.048423
-0.124043
0.000722
0.100806
-0.059765
-0.107757
0.060647
-0.012392
-0.085829
-0.080981
0.052904
0.031471
-0.031035
-0.056585
0.025199
-0.089143
0.116718
-0.004868
0.158505
0.112747
0.085077
0.177613
-0.119188
0.026554
0.137911
-0.173542
0.142861
-0.012939
0.034239
0.164052
-0.131887
-0.087097
0.062431
0.006968
-0.184752
0.154903
0.101759
-0.004007
0.175752
-0.087090
0.072050
-0.189663
-0.176524
0.186621
0.039949
-0.188582
-0.121778
-0.004855
-0.044806
0.024503
-0.029696
0.042799
0.126311
0.179529
-0.107927
-0.005253
-0.153996
-0.086254
-0.180809
-0.177630
0.025986
0.176409
0.175700
0.072507
-0.000041
-0.081708
-0.006917
0.185896
-0.026174
0.069552
-0.021101
0.159881
-0.060455
0.021836
0.155335
-0.163056
-0.091332
-0.007637
-0.144591
-0.165097
-0.048323
-0.127543
-0.085544
0.048604
-0.130627
0.153915
0.053735
-0.187899
-0.170980
0.146188
-0.057911
-0.167909
0.010466
-0.100485
0.052728
0.012132
-0.131277
-0.012328
-0.178232
-0.102002
0.145829
-0.156694
-0.073235
-0.107530
-0.058765
0.158892
0.084831
0.131196
-0.061392
0.097277
-0.152713
0.190413
-0.041169
0.033081
-0.057603
0.032606
-0.019881
0.140782
0.146248
-0.143878
0.104921
-0.040818
0.043906
0.150409
0.025938
0.049075
-0.128235
0.024754
-0.139931
0.027650
-0.000983
-0.132736
0.048789
0.051463
0.000865
0.017568
0.064022
0.012546
-0.118384
0.024837
0.107178
0.186056
0.026436
0.123073
-0.103815
-0.131294
-0.150077
0.118800
0.113920
0.045026
-0.011252
-0.149288
-0.146846
0.085495
-0.021326
0.082118
-0.029128
-0.169344
-0.005249
-0.125023
0.066035
-0.155048
0.128446
0.047068
-0.047721
0.010645
-0.004037
0.143118
0.036570
0.055803
-0.189627
0.083908
0.065718
0.071810
-0.028629
-0.132005
0.158043
0.014489
0.003329
0.088655
0.005757
-0.061216
0.121681
0.106139
-0.043264
-0.114827
0.183104
0.067179
-0.063427
-0.088522
0.138027
0.123068
-0.121584
-0.058255
-0.143938
-0.141992
0.173066
-0.059279
-0.184271
-0.187009
-0.116317
0.189430
-0.184036
-0.058204
-0.039567
-0.128216
0.190339
-0.129257
0.077116
0.155311
0.004878
0.068784
0.153524
-0.087191
0.188694
-0.184941
-0.011059
0.037012
0.138481
0.143978
0.024568
-0.162896
-0.141431
0.183719
-0.164153
-0.151206
-0.033126
-0.148694
0.123887
0.188888
0.055906
0.040676
-0.142555
-0.162818
-0.099799
0.095793
0.191046
-0.014213
-0.027488
-0.125559
0.005917
0.039008
-0.174729
-0.075217
0.073575
-0.053362
0.137363
0.062108
-0.002462
0.144933
-0.064675
-0.153217
0.092837
0.177346
-0.173034
0.091446
-0.169618
-0.054542
0.029162
-0.034777
0.055047
0.059287
0.084957
0.110546
-0.162584
-0.140237
0.136857
0.187670
-0.130873
-0.085301
0.090863
-0.054227
-0.184714
0.019662
-0.181330
-0.012291
0.015822
-0.089002
0.042933
-0.062673
-0.116161
-0.139818
-0.029953
-0.022007
0.190666
0.082352
0.008607
0.092285
-0.050811
-0.125450
0.142269
0.007752
0.085540
-0.166966
0.004152
0.142265
0.141678
0.011922
-0.103727
0.108697
0.070598
-0.131309
0.174452
0.184450
-0.190618
-0.177897
0.114324
0.067350
-0.181339
-0.032865
-0.113006
-0.110888
-0.130901
-0.133995
-0.190365
-0.033872
-0.074738
-0.021313
0.101081
-0.098512
0.005733
-0.130316
0.097518
-0.178032
0.141670
-0.189938
0.058198
-0.013801
-0.155837
-0.061518
0.054476
0.002493
-0.185598
-0.066164
-0.149742
-0.113971
-0.074246
0.028534
-0.012438
-0.063263
-0.022448
-0.049728
-0.006718
-0.081397
-0.128175
0.053516
-0.089411
0.176525
0.154456
0.052163
0.130355
-0.156851
-0.017118
0.151694
-0.096443
0.018909
0.169947
-0.082268
0.005367
0.100756
-0.190627
-0.122544
-0.174773
-0.040148
-0.191298
-0.145560
-0.037329
0.149153
0.107043
0.043996
-0.098560
0.029180
-0.108534
-0.160707
0.174112
-0.062780
0.128973
-0.126844
-0.029031
0.152172
0.031372
-0.063368
-0.132225
-0.001057
-0.085220
0.187470
0.112032
0.139856
0.086814
-0.074633
0.170895
0.027999
-0.186117
-0.163376
-0.035172
0.111200
-0.023946
-0.065945
0.072261
0.179121
0.171899
0.011658
0.027838
0.129223
0.147930
-0.122147
0.139961
-0.067528
0.032949
0.140523
0.186496
-0.112285
0.001815
0.041978
-0.024777
0.135662
0.180470
0.032515
-0.011841
-0.162189
0.156010
-0.182446
0.064133
0.006758
0.191561
-0.179324
-0.182809
0.022322
-0.049298
0.122315
-0.097404
0.147331
0.042034
0.099608
0.012303
-0.058340
-0.170709
0.029823
0.036633
-0.067267
-0.123170
0.021892
0.111994
-0.091907
-0.136335
-0.127230
0.050667
-0.024082
0.179099
0.175100
-0.080346
0.102067
0.026414
0.090951
-0.003435
-0.109510
0.184926
-0.050109
-0.048929
0.139591
-0.103870
0.032444
0.182439
-0.190397
-0.180916
0.046457
-0.139027
0.189914
-0.173986
0.085515
0.180203
0.123012
0.069148
0.002632
0.182147
0.179829
-0.147359
0.145823
-0.099612
-0.084397
0.033082
0.062049
0.070097
0.119796
-0.178140
-0.116645
0.122210
0.079694
-0.000081
-0.161570
-0.017197
0.005169
-0.167845
0.083076
0.057322
-0.140574
-0.177137
-0.053598
0.095525
-0.001971
0.173548
-0.023339
0.175862
-0.133181
-0.136457
0.137580
-0.135819
0.136108
-0.031390
-0.097791
0.091153
0.095490
0.183126
-0.020724
-0.086180
-0.062582
0.127609
-0.039936
-0.112518
0.064181
-0.028288
-0.093267
0.022414
0.129256
-0.177887
0.122019
-0.162644
0.108885
0.011600
-0.074256
-0.125524
0.015653
-0.088223
-0.031989
-0.157732
-0.068602
0.147978
0.037818
0.012239
0.177328
0.025013
0.056935
0.101492
-0.158378
0.184137
-0.047053
0.161908
0.058976
0.012169
-0.036809
0.126150
-0.097732
0.187489
-0.043366
0.073214
-0.154756
-0.083418
-0.159536
-0.139076
-0.063571
-0.069520
0.090276
0.029137
-0.026973
0.068532
-0.156004
-0.089029
0.004913
-0.137879
-0.001348
0.006971
0.163768
-0.191312
0.067230
-0.125095
-0.061372
-0.170397
-0.056358
0.077440
-0.134646
0.142145
0.005196
0.178758
0.013013
-0.156019
0.066493
-0.170289
0.026919
-0.157789
0.185046
-0.059373
0.146156
0.071007
-0.175778
-0.078528
-0.173307
0.146667
0.046636
-0.060657
0.119858
0.087460
-0.005556
-0.046356
-0.050930
0.008813
-0.060128
0.052793
0.182876
-0.153081
-0.085094
-0.096816
0.121732
-0.178071
-0.156763
-0.126627
-0.181242
0.190098
-0.005498
-0.004876
-0.003299
0.175911
-0.183249
-0.050235
-0.000674
0.128050
-0.153641
0.003852
-0.141941
-0.110768
0.094220
-0.101644
0.116171
-0.115853
0.126666
-0.164662
-0.064866
-0.027334
0.036919
0.182652
0.055608
0.015523
0.083168
0.133474
0.107814
-0.123134
-0.012819
0.185251
-0.067301
0.130373
0.103457
0.009720
0.179116
0.084276
0.071022
-0.062969
0.064503
-0.003174
-0.165430
-0.173353
-0.070629
-0.167434
-0.089869
0.122033
-0.017340
-0.148567
-0.041195
0.107389
0.124666
0.112419
0.169830
0.185414
0.146389
0.023524
-0.020442
0.133498
0.177676
0.044717
0.034478
-0.182990
-0.081613
-0.146383
0.173021
0.096408
0.067644
-0.069264
0.049724
-0.106191
0.068345
0.135706
0.063732
-0.175249
-0.162954
0.031005
0.144339
-0.075006
0.106378
-0.062061
-0.081961
-0.136975
0.100199
-0.031639
-0.072721
0.180336
0.059511
0.076370
0.062695
0.160789
-0.022687
-0.014925
-0.192371
-0.179642
-0.133422
0.026262
-0.113234
0.026547
-0.035105
-0.044583
-0.164777
-0.054587
-0.159697
-0.118361
0.063618
0.048711
-0.158733
0.091404
-0.006354
0.097717
-0.079801
0.044542
