0.017487
0.000188
-0.016600
-0.004671
0.021693
-0.017312
0.024091
-0.012339
-0.021344
-0.020043
-0.016458
-0.013020
0.011931
0.004978
0.008178
-0.006809
0.009242
0.004876
0.008249
-0.000599
-0.005248
-0.022353
-0.004886
0.025216
0.003130
0.027280
0.020031
0.009003
-0.026865
0.023044
-0.008430
0.024762
-0.018134
-0.029161
-0.002044
0.018341
-0.001081
-0.013898
-0.024369
0.022745
-0.015245
0.001513
-0.017519
0.008926
0.014746
0.028222
0.015154
0.021159
-0.022778
0.011178
0.012994
0.014214
-0.001851
-0.024021
0.000370
0.024008
-0.001595
-0.021710
-0.010703
-0.012989
0.008771
-0.027828
0.020315
-0.022424
0.002269
0.026248
-0.015285
-0.029262
0.009505
-0.006264
0.020613
-0.027566
0.013906
-0.012199
-0.021436
0.014442
0.002983
-0.011768
-0.011133
0.025274
-0.016630
-0.002240
-0.016044
-0.009534
-0.003919
0.017792
0.025850
-0.002698
0.004823
-0.022461
0.027427
0.017427
-0.026506
0.014675
0.028009
-0.020134
0.014451
-0.007977
-0.019457
-0.006518
-0.016698
0.004181
-0.022936
0.028284
-0.010159
-0.024672
0.012837
0.011846
-0.024612
-0.003257
-0.019630
-0.009489
0.002447
-0.022321
0.026066
-0.029013
0.027343
0.013795
0.023677
-0.016189
-0.028085
0.000457
0.015115
-0.000226
-0.029190
0.023032
-0.021596
0.024407
