-0.003860
0.007661
-0.016614
-0.006110
-0.009493
-0.002160
0.016896
-0.003650
0.007857
0.006102
0.001869
-0.007214
-0.002332
0.019797
0.015451
-0.000232
-0.003989
-0.002165
-0.017589
0.011621
-0.000785
0.015813
-0.006727
0.011892
-0.012943
-0.016566
0.005234
-0.011754
-0.010322
0.016870
-0.004859
-0.014702
0.004854
0.013023
0.007206
0.013622
-0.016977
0.000532
-0.015795
-0.013250
-0.013749
-0.014423
-0.020337
0.006694
-0.002771
0.016201
0.000689
-0.016111
-0.004243
-0.000961
-0.004289
-0.006283
-0.012862
-0.008495
-0.001313
0.009521
0.010878
0.002648
-0.000277
-0.000738
0.009649
-0.007801
-0.000039
0.019949
-0.002261
-0.004045
0.018564
-0.005191
-0.019607
0.017056
-0.016784
0.004697
0.004746
0.019713
-0.005044
0.013257
-0.013605
-0.017963
0.012120
-0.013828
-0.019428
-0.017197
0.015508
0.014676
-0.016355
-0.005438
-0.016439
0.004906
0.014402
0.006308
-0.018088
0.016473
0.008004
-0.020495
0.012317
0.015812
0.012188
-0.019284
0.003939
0.003177
0.000021
-0.004623
0.015779
-0.000962
0.005652
-0.019991
0.020017
-0.010542
0.017619
0.007659
0.012808
0.002674
0.019410
0.002648
0.007029
0.020050
0.016696
0.016394
0.002166
0.005563
0.006702
0.014929
-0.016414
-0.004758
-0.019018
-0.017879
0.013248
0.015240
-0.012128
-0.005429
-0.000005
0.005152
0.013706
0.000539
-0.020417
0.007718
-0.019109
-0.010975
0.009988
0.016135
-0.000682
0.000857
-0.016804
0.004819
0.015646
0.015390
-0.020697
0.000951
-0.005247
-0.013857
0.007236
0.010207
0.016513
0.008400
0.002263
-0.002025
0.001516
0.013546
0.010127
0.003670
0.011130
-0.015669
0.009107
-0.010444
0.002477
-0.007980
0.009721
-0.011842
-0.002537
0.017066
0.007754
-0.016974
-0.010191
0.016084
-0.017786
0.013659
0.016627
-0.015192
-0.012296
0.017465
0.000694
-0.014015
-0.014337
-0.020084
-0.000956
-0.018016
0.005820
-0.008752
0.001703
0.014484
-0.001207
-0.020108
0.015936
-0.005231
-0.013445
-0.000095
-0.009683
-0.009405
0.000942
0.003991
-0.012564
0.000685
-0.005978
-0.006933
0.018685
-0.012188
-0.006823
0.012645
-0.018638
0.014477
-0.007987
0.009883
0.003426
0.020746
0.003163
0.012989
0.005941
0.015322
-0.018620
0.013527
0.013398
0.003938
0.017955
0.016251
-0.000755
0.008588
0.004761
0.020383
0.015128
0.006058
0.013075
-0.006593
0.006225
-0.000435
0.014327
-0.002099
0.017106
0.005542
-0.016570
-0.017856
0.019171
0.010334
-0.006464
0.007426
-0.020650
0.012854
0.012434
-0.001821
-0.000499
0.004842
-0.014821
-0.013802
-0.004112
-0.008861
-0.000993
0.017934
0.015280
-0.011493
0.004852
-0.001214
0.019755
0.006158
0.016627
0.014452
-0.010849
0.010435
0.009666
0.004901
-0.004617
0.013526
0.003651
-0.020613
0.017506
-0.001216
-0.009018
-0.020375
0.019453
-0.007289
-0.019040
0.016659
0.003967
-0.000688
-0.019692
-0.017388
0.001816
0.008611
0.017927
-0.019911
-0.005494
0.020496
0.011070
0.009978
0.012668
0.000425
-0.008312
0.006751
0.010734
-0.007502
-0.008218
0.019749
-0.000742
-0.001775
-0.015987
-0.002326
-0.013487
0.001136
-0.019725
0.011626
0.010594
0.008845
-0.004172
0.019010
0.015850
0.009242
-0.007694
0.005275
-0.008212
-0.019896
0.013735
-0.013775
0.003102
0.008696
-0.004953
-0.000170
-0.016312
-0.009865
0.017796
0.007050
0.016816
0.001414
-0.014765
0.019317
0.014672
0.008508
0.014879
0.004752
-0.015591
0.005846
-0.005763
-0.020167
0.008032
-0.006451
-0.005092
0.003013
0.012715
-0.001544
-0.009666
-0.006852
0.005375
-0.018584
0.007078
-0.015744
0.014633
0.020637
-0.017395
-0.008453
-0.006223
-0.017336
0.018315
-0.000371
0.003446
0.013877
0.008721
-0.006557
-0.020540
0.002896
0.013347
-0.017729
-0.018699
0.011351
0.002288
0.020361
0.017821
0.016651
-0.006649
-0.017024
-0.014538
0.015464
0.006214
-0.020460
0.014985
0.017698
-0.007465
0.013721
-0.013096
-0.017577
-0.013208
-0.008089
0.011116
0.019606
-0.005658
0.006361
-0.007129
0.012323
-0.013753
-0.015783
0.004657
-0.006011
-0.013003
-0.010571
-0.015598
-0.008454
-0.000374
0.018327
-0.007114
-0.012739
0.008053
-0.019776
-0.004137
-0.020143
-0.015305
-0.009354
0.007220
0.001512
0.002671
0.012849
0.013300
0.013195
-0.007163
-0.004503
-0.020780
-0.005139
0.010044
0.012566
-0.012732
0.011430
-0.007857
-0.004347
0.003969
-0.018426
0.016170
-0.003925
-0.012007
-0.008815
0.008081
-0.017842
-0.001138
0.000823
-0.020453
0.011278
0.019830
-0.012634
0.008601
-0.005947
-0.012179
-0.013211
0.005975
-0.008632
0.003713
-0.007997
0.006757
-0.008256
-0.016042
0.012515
0.003722
-0.010639
0.005070
-0.017324
-0.001140
-0.005193
0.008733
-0.019228
-0.015937
-0.011082
-0.015078
-0.010877
-0.000807
-0.003996
0.002167
-0.005014
0.013611
-0.012013
-0.002855
0.007917
-0.003346
-0.019274
-0.005405
0.013666
-0.013586
-0.003053
-0.003761
0.008403
-0.010538
-0.002936
-0.005589
-0.009895
-0.012481
-0.001186
-0.007384
-0.004399
-0.006843
-0.004850
-0.014114
0.005373
0.006033
0.000016
-0.016595
0.004891
-0.010187
0.012685
-0.008268
-0.008679
-0.007244
0.002455
0.011301
-0.007406
-0.012106
-0.008099
-0.013829
0.008765
0.009866
0.009755
